{"<pad>":0,"<unk>":1,"<s>":2,"</s>":3,"!":4,",":5,"-":6,".":7,"?":8,"ँ":9,"ं":10,"ः":11,"ऄ":12,"अ":13,"आ":14,"इ":15,"ई":16,"उ":17,"ऊ":18,"ऋ":19,"ऌ":20,"ऍ":21,"ऎ":22,"ए":23,"ऐ":24,"ऑ":25,"ऒ":26,"ओ":27,"औ":28,"क":29,"ख":30,"ग":31,"घ":32,"ङ":33,"च":34,"छ":35,"ज":36,"झ":37,"ञ":38,"ट":39,"ठ":40,"ड":41,"ढ":42,"ण":43,"त":44,"थ":45,"द":46,"ध":47,"न":48,"ऩ":49,"प":50,"फ":51,"ब":52,"भ":53,"म":54,"य":55,"र":56,"ऱ":57,"ल":58,"ळ":59,"ऴ":60,"व":61,"श":62,"ष":63,"स":64,"ह":65,"ऺ":66,"़":67,"ऽ":68,"ा":69,"ि":70,"ी":71,"ु":72,"ू":73,"ृ":74,"ॄ":75,"ॅ":76,"ॆ":77,"े":78,"ै":79,"ॉ":80,"ॊ":81,"ो":82,"ौ":83,"्":84,"ॐ":85,"॑":86,"॒":87,"॓":88,"॔":89,"ॕ":90,"ॖ":91,"क़":92,"ख़":93,"ग़":94,"ज़":95,"ड़":96,"ढ़":97,"फ़":98,"य़":99,"ॠ":100,"ॡ":101,"ॢ":102,"ॣ":103,"॥":104,"॰":105,"ॲ":106,"ॳ":107,"ॶ":108,"ॷ":109,"ॹ":110,"ॻ":111,"ॼ":112,"ॽ":113,"ॾ":114,"ॿ":115,"के":116,"ार":117,"ें":118,"ने":119,"्र":120,"है":121,"या":122,"में":123,"की":124,"का":125,"ों":126,"कर":127,"से":128,"कि":129,"को":130,"ता":131,"ना":132,"स्":133,"र्":134,"ला":135,"ही":136,"क्":137,"पर":138,"वा":139,"ले":140,"रा":141,"प्र":142,"सा":143,"मा":144,"हा":145,"और":146,"्य":147,"लि":148,"जा":149,"वि":150,"हो":151,"इस":152,"भी":153,"कार":154,"बा":155,"दे":156,"नि":157,"दि":158,"ते":159,"हैं":160,"नी":161,"ति":162,"ती":163,"गा":164,"न्":165,"पा":166,"ली":167,"ड़":168,"त्र":169,"हु":170,"सी":171,"था":172,"ंग":173,"मि":174,"हीं":175,"री":176,"ल्":177,"क्ष":178,"त्":179,"एक":180,"लिए":181,"सं":182,"जि":183,"मु":184,"दी":185,"सि":186,"रह":187,"दा":188,"नहीं":189,"अप":190,"भा":191,"हि":192,"यों":193,"टी":194,"रि":195,"चा":196,"ोग":197,"जी":198,"शा":199,"वार":200,"्या":201,"सम":202,"ुर":203,"तो":204,"सर":205,"किया":206,"ये":207,"मे":208,"मी":209,"देश":210,"कु":211,"कहा":212,"पी":213,"धि":214,"पू":215,"यह":216,"ंड":217,"वे":218,"द्":219,"शि":220,"रे":221,"गया":222,"रो":223,"खा":224,"करने":225,"न्ह":226,"बी":227,"स्ट":228,"ंद":229,"साथ":230,"उन":231,"आप":232,"ार्":233,"बाद":234,"सु":235,"उस":236,"ष्":237,"वी":238,"ारी":239,"राज":240,"मं":241,"धा":242,"उन्ह":243,"बि":244,"पु":245,"गी":246,"श्":247,"फि":248,"नों":249,"हम":250,"ट्र":251,"पह":252,"क्र":253,"जो":254,"ित":255,"तक":256,"दो":257,"तर":258,"रहे":259,"थी":260,"भार":261,"गे":262,"सक":263,"लोग":264,"मै":265,"मान":266,"ंच":267,"अन":268,"दिया":269,"रू":270,"डि":271,"अपने":272,"बार":273,"प्":274,"चु":275,"वर्":276,"हर":277,"म्":278,"च्":279,"ओं":280,"जन":281,"इन":282,"मो":283,"बे":284,"शन":285,"हुए":286,"यो":287,"रहा":288,"त्री":289,"सरकार":290,"जब":291,"ढ़":292,"टे":293,"टा":294,"पि":295,"किन":296,"टर":297,"ोंने":298,"रही":299,"थे":300,"बता":301,"बर":302,"दू":303,"वह":304,"बना":305,"..":306,"गई":307,"उन्होंने":308,"जे":309,"लेकिन":310,"अधि":311,"मिल":312,"्रे":313,"लो":314,"स्था":315,"टि":316,"्रा":317,"जिस":318,"चार":319,"गर":320,"खि":321,"लगा":322,"रु":323,"परि":324,"मंत्री":325,"सू":326,"सो":327,"सब":328,"कुछ":329,"हां":330,"आई":331,"बै":332,"चि":333,"बात":334,"ंध":335,"्री":336,"यु":337,"लग":338,"पहले":339,"जाए":340,"अब":341,"पे":342,"होने":343,"प्रति":344,"स्त":345,"डी":346,"सिं":347,"दर्":348,"यर":349,"वाले":350,"स्थ":351,"ध्य":352,"मौ":353,"एस":354,"मुख":355,"भारत":356,"दु":357,"योग":358,"लिस":359,"लोगों":360,"डा":361,"क्षा":362,"लों":363,"व्य":364,"कोई":365,"चे":366,"ची":367,"कों":368,"कर्":369,"ियों":370,"करते":371,"कार्य":372,"पुलिस":373,"अपनी":374,"फी":375,"पूर्":376,"निर्":377,"मार":378,"सिंह":379,"गु":380,"पो":381,"गए":382,"वर":383,"हे":384,"इसके":385,"अनु":386,"अं":387,"धान":388,"उप":389,"छा":390,"ब्":391,"कै":392,"ड़ा":393,"पुर":394,"माम":395,"कम":396,"किसी":397,"काम":398,"ड़ी":399,"क्त":400,"आज":401,"कारी":402,"जान":403,"लिया":404,"फा":405,"ंप":406,"बो":407,"दौ":408,"खे":409,"ारा":410,"िया":411,"यू":412,"जु":413,"साल":414,"वं":415,"मैं":416,"णा":417,"स्ता":418,"शी":419,"र्ट":420,"तरह":421,"द्र":422,"दिन":423,"हुआ":424,"समय":425,"रुप":426,"शे":427,"कई":428,"लेकर":429,"उत्":430,"बताया":431,"ंक":432,"वो":433,"ष्ट्र":434,"जू":435,"देख":436,"वारा":437,"तु":438,"कह":439,"एम":440,"मह":441,"पार्":442,"उनके":443,"चल":444,"बु":445,"वन":446,"रूप":447,"हुई":448,"प्रा":449,"जै":450,"शुर":451,"ज़":452,"मन":453,"बहु":454,"इं":455,"करें":456,"खु":457,"रान":458,"द्वारा":459,"पहु":460,"्यू":461,"फिल्":462,"नाम":463,"ट्":464,"ज्":465,"ंग्रे":466,"िक":467,"एं":468,"क्षे":469,"उन्हें":470,"गि":471,"नाव":472,"डे":473,"ड़े":474,"गो":475,"राज्य":476,"रख":477,"जाता":478,"सभी":479,"फ्":480,"खिला":481,"तीय":482,"भाग":483,"प्रदेश":484,"पै":485,"जाने":486,"मत":487,"कॉ":488,"लय":489,"फिर":490,"पास":491,"निक":492,"क्स":493,"ठा":494,"होता":495,"कृ":496,"धार":497,"ल्ली":498,"करना":499,"बढ़":500,"जार":501,"ूल":502,"बन":503,"फिल्म":504,"सार":505,"मुख्य":506,"होगा":507,"महि":508,"सकता":509,"ंस":510,"वाली":511,"ौर":512,"राष्ट्र":513,"कंप":514,"त्या":515,"शु":516,"कांग्रे":517,"बहुत":518,"दार":519,"क्षेत्र":520,"दिल्ली":521,"क्या":522,"आर":523,"भि":524,"क्ति":525,"वर्ष":526,"घर":527,"कांग्रेस":528,"फो":529,"सकते":530,"बंध":531,"चुनाव":532,"तार":533,"समा":534,"महिला":535,"राम":536,"दर":537,"्यादा":538,"साम":539,"एवं":540,"वै":541,"सबसे":542,"हू":543,"र्थ":544,"मार्":545,"जर":546,"दौरान":547,"करा":548,"त्रा":549,"फै":550,"बच्":551,"त्य":552,"चाहि":553,"करी":554,"शुरू":555,"आरो":556,"टीम":557,"सभा":558,"कारण":559,"भू":560,"स्व":561,"भारतीय":562,"बीच":563,"उसके":564,"त्व":565,"तथा":566,"निया":567,"नेता":568,"सर्":569,"क्यों":570,"उनकी":571,"पार्टी":572,"ीय":573,"पर्":574,"छो":575,"ज्यादा":576,"ंव":577,"शो":578,"चाहिए":579,"करो":580,"उसे":581,"सन":582,"यहां":583,"विश्":584,"जग":585,"धी":586,"श्री":587,"पहुंच":588,"ध्यक्ष":589,"हार":590,"बद":591,"ज्ञ":592,"जना":593,"दोनों":594,"यी":595,"यन":596,"अगर":597,"ंत":598,"भाव":599,"ग्र":600,"पता":601,"ऐसे":602,"सुर":603,"दान":604,"मामले":605,"मोदी":606,"चौ":607,"कल":608,"आपको":609,"नो":610,"अधिक":611,"हत":612,"नीति":613,"महा":614,"पं":615,"जय":616,"भर":617,"लू":618,"अपना":619,"तीन":620,"द्ध":621,"ग्रा":622,"यत":623,"देने":624,"टना":625,"न्न":626,"तै":627,"होती":628,"भाज":629,"पाल":630,"पूर्व":631,"अन्य":632,"खिलाफ":633,"अच्":634,"ंद्र":635,"कुमार":636,"योजना":637,"अव":638,"सद":639,"पत्र":640,"क्रम":641,"सम्":642,"रिया":643,"वाई":644,"बैठ":645,"हों":646,"हन":647,"पिछ":648,"घा":649,"कान":650,"वाल":651,"एन":652,"रुपये":653,"भाजपा":654,"करण":655,"तं":656,"वाद":657,"प्रधान":658,"ंगा":659,"र्म":660,"गांव":661,"फे":662,"डॉ":663,"बारे":664,"झे":665,"केट":666,"ेंगे":667,"पद":668,"र्ड":669,"इंड":670,"पति":671,"प्त":672,"लै":673,"द्य":674,"लाख":675,"ून":676,"स्तान":677,"हाल":678,"संग":679,"प्रे":680,"इससे":681,"रात":682,"ऐसा":683,"लोक":684,"यम":685,"स्वा":686,"न्या":687,"किए":688,"ारे":689,"जारी":690,"गत":691,"झा":692,"स्क":693,"ध्या":694,"इसी":695,"ठी":696,"मांग":697,"हित":698,"ज्ञा":699,"सल":700,"वहीं":701,"धन":702,"सरे":703,"शामिल":704,"टो":705,"चाह":706,"काफी":707,"जाएगा":708,"यक":709,"स्थान":710,"सान":711,"जीत":712,"वल":713,"विधा":714,"अध्यक्ष":715,"ओर":716,"फ़":717,"जानकारी":718,"चना":719,"नर":720,"वज":721,"...":722,"ंकि":723,"यार":724,"जवा":725,"जैसे":726,"करता":727,"्ड":728,"सै":729,"यल":730,"नौ":731,"इस्":732,"मुख्यमंत्री":733,"छे":734,"मद":735,"पोर्ट":736,"कंपनी":737,"हाला":738,"विका":739,"विभाग":740,"ंगे":741,"पाकि":742,"घटना":743,"भे":744,"करोड़":745,"क्टर":746,"ग्":747,"जरू":748,"भग":749,"इसे":750,"होगी":751,"पत्":752,"सह":753,"घो":754,"रत":755,"णी":756,"यां":757,"पिछले":758,"अलग":759,"सामने":760,"लं":761,"र्स":762,"याद":763,"यं":764,"करे":765,"रण":766,"स्थि":767,"पूर्ण":768,"वाला":769,"ेंद्र":770,"अनुसार":771,"जित":772,"सकती":773,"बल्":774,"माण":775,"जिला":776,"डिया":777,"विकास":778,"काल":779,"त्म":780,"आने":781,"अभी":782,"सला":783,"नगर":784,"कुल":785,"माल":786,"विश्व":787,"मुझे":788,"क्योंकि":789,"पूरी":790,"व्या":791,"क्षण":792,"फल":793,"अधिकार":794,"ंट":795,"नई":796,"आए":797,"ुक":798,"हरा":799,"होते":800,"व्यक्ति":801,"पानी":802,"अग":803,"आरोप":804,"जूद":805,"कोर्ट":806,"बंद":807,"क्रि":808,"मू":809,"शर्":810,"जाती":811,"आदि":812,"ल्या":813,"बल":814,"पक":815,"म्मी":816,"राष्ट्रीय":817,"ताओं":818,"शेष":819,"चों":820,"पार":821,"फर":822,"ोल":823,"गिर":824,"जिन":825,"परिवार":826,"वरी":827,"जहां":828,"अला":829,"जबकि":830,"परा":831,"एल":832,"उनका":833,"बॉ":834,"दर्शन":835,"गुर":836,"दिखा":837,"अभि":838,"दर्ज":839,"स्वी":840,"जांच":841,"विधान":842,"बनाने":843,"प्रधानमंत्री":844,"कर्म":845,"हजार":846,"टू":847,"जीवन":848,"पाकिस्तान":849,"दूर":850,"प्रो":851,"इसमें":852,"बह":853,"साइ":854,"दें":855,"चित":856,"स्थित":857,"डियो":858,"इला":859,"कभी":860,"सदी":861,"दूसरे":862,"आयो":863,"्यालय":864,"गल":865,"श्र":866,"करीब":867,"वास":868,"ड़ा":869,"तब":870,"आगे":871,"चला":872,"दन":873,"पक्ष":874,"मिला":875,"स्थिति":876,"इसलिए":877,"उम्मी":878,"सके":879,"उसकी":880,"जिसमें":881,"बिक":882,"समझ":883,"बं":884,"र्फ":885,"मीडिया":886,"अलावा":887,"शहर":888,"लॉ":889,"ख्या":890,"व्यव":891,"दिए":892,"प्ता":893,"उठा":894,"युक्त":895,"परी":896,"मिले":897,"अमे":898,"रुपए":899,"ड़ी":900,"तरी":901,"जल":902,"उम्मीद":903,"वजह":904,"बस":905,"वेश":906,"हालांकि":907,"लाल":908,"आधार":909,"इत":910,"कट":911,"खेल":912,"ब्र":913,"दूस":914,"आत":915,"सौ":916,"ष्ट":917,"विरो":918,"हूं":919,"राजनीति":920,"आया":921,"बाहर":922,"ष्ठ":923,"पांच":924,"इसका":925,"विक":926,"तों":927,"लें":928,"स्टे":929,"विशेष":930,"ंधी":931,"भाष":932,"वान":933,"कहना":934,"सेना":935,"रन":936,"धित":937,"न्द्र":938,"आपके":939,"अधिकारी":940,"केंद्र":941,"लाई":942,"हमारे":943,"परे":944,"मुता":945,"नजर":946,"उत्तर":947,"श्य":948,"दिनों":949,"तैयार":950,"लड़":951,"पड़":952,"पन":953,"सेवा":954,"हाथ":955,"तौर":956,"मुताबिक":957,"बू":958,"टन":959,"कार्यक्रम":960,"त्रों":961,"आहे":962,"मही":963,"बेह":964,"दुनिया":965,"अमेरि":966,"रवि":967,"जाते":968,"दम":969,"तन":970,"न्यू":971,"ट्रे":972,"बैंक":973,"मुं":974,"गं":975,"गांधी":976,"लर":977,"मध्य":978,"देव":979,"स्या":980,"आम":981,"ंगल":982,"शर्मा":983,"मेंट":984,"जनता":985,"तहत":986,"संघ":987,"चो":988,"सचि":989,"वहां":990,"मेरे":991,"पढ़":992,"दों":993,"पूरा":994,"अस्":995,"फोन":996,"कता":997,"घोष":998,"शासन":999,"मंड":1000,"खुद":1001,"विष":1002,"मैच":1003,"स्तर":1004,"ड़े":1005,"गै":1006,"चर्":1007,"बड़ी":1008,"यान":1009,"मौत":1010,"भो":1011,"हिस्":1012,"सुरक्षा":1013,"शत":1014,"नीय":1015,"मित":1016,"उसने":1017,"सुन":1018,"त्त":1019,"वृ":1020,"एफ":1021,"बिज":1022,"लिये":1023,"जल्":1024,"सदस्":1025,"फीसदी":1026,"यदि":1027,"जाना":1028,"शल":1029,"मिली":1030,"जगह":1031,"ंचा":1032,"दिर":1033,"चै":1034,"पहली":1035,"बच्चों":1036,"विद":1037,"देते":1038,"बैठक":1039,"डर":1040,"प्री":1041,"बाजार":1042,"रिपोर्ट":1043,"बई":1044,"समाज":1045,"खान":1046,"्स":1047,"शिव":1048,"व्यवस्था":1049,"स्कूल":1050,"सिल":1051,"संबंध":1052,"ंदर":1053,"मर":1054,"करके":1055,"करती":1056,"भूमि":1057,"रहने":1058,"जिसके":1059,"इल":1060,"करेंगे":1061,"राव":1062,"जों":1063,"वीडियो":1064,"गुरु":1065,"बढ़ा":1066,"लगे":1067,"मीर":1068,"समस्या":1069,"कृति":1070,"सिर्फ":1071,"नाथ":1072,"रंग":1073,"शान":1074,"शिक्षा":1075,"मदद":1076,"खबर":1077,"प्रदर्शन":1078,"निर्माण":1079,"ल्प":1080,"सीट":1081,"धर":1082,"जेपी":1083,"क्रिया":1084,"जें":1085,"मंदिर":1086,"लब":1087,"कोशि":1088,"प्राप्त":1089,"टिंग":1090,"खरी":1091,"नए":1092,"इसकी":1093,"त्ता":1094,"भु":1095,"अभ":1096,"मृ":1097,"ऐसी":1098,"मैंने":1099,"लेने":1100,"दारी":1101,"पुरा":1102,"विचार":1103,"प्रकार":1104,"लिक":1105,"संख्या":1106,"प्रि":1107,"थि":1108,"तरफ":1109,"केवल":1110,"गें":1111,"खो":1112,"इंडिया":1113,"प्रतिशत":1114,"हाँ":1115,"भव":1116,"युव":1117,"टल":1118,"प्रमुख":1119,"नं":1120,"जिससे":1121,"धर्म":1122,"गू":1123,"यादव":1124,"विधानसभा":1125,"लेख":1126,"खंड":1127,"षण":1128,"सवाल":1129,"ल्ड":1130,"हमें":1131,"ट्स":1132,"हिं":1133,"भारी":1134,"इस्ते":1135,"इस्तेमाल":1136,"कोशिश":1137,"अर्":1138,"कौ":1139,"वाह":1140,"महीने":1141,"ध्यान":1142,"सें":1143,"दबा":1144,"बीजेपी":1145,"क्री":1146,"पिता":1147,"हुल":1148,"एक्":1149,"प्रका":1150,"सफल":1151,"जिले":1152,"अस्पता":1153,"पूरे":1154,"लन":1155,"चीन":1156,"लैंड":1157,"सूचना":1158,"मिक":1159,"जाएगी":1160,"बजे":1161,"नियों":1162,"उसका":1163,"गढ़":1164,"समर्थ":1165,"मां":1166,"वित":1167,"चान":1168,"विदेश":1169,"लाइ":1170,"सुबह":1171,"रखा":1172,"मूल":1173,"वें":1174,"गिरफ्":1175,"कीमत":1176,"राब":1177,"छी":1178,"वासी":1179,"गर्":1180,"यही":1181,"खी":1182,"होना":1183,"ार्थ":1184,"मामला":1185,"अफ":1186,"मौजूद":1187,"चुके":1188,"गयी":1189,"लाइन":1190,"शुरु":1191,"उपल":1192,"निर्देश":1193,"माना":1194,"कैसे":1195,"बढ़":1196,"अधिकारियों":1197,"शादी":1198,"लने":1199,"टै":1200,"मुंबई":1201,"बड़े":1202,"तम":1203,"राशि":1204,"सरकारी":1205,"आव":1206,"राहुल":1207,"अंत":1208,"करवा":1209,"वालों":1210,"विरोध":1211,"रै":1212,"मौके":1213,"नाग":1214,"कप":1215,"र्ष":1216,"शिका":1217,"रेल":1218,"च्च":1219,"दूसरी":1220,"हत्या":1221,"कश्":1222,"बचा":1223,"लाभ":1224,"बिजली":1225,"सत":1226,"भिन्न":1227,"धे":1228,"अच्छा":1229,"उत्पा":1230,"लु":1231,"सचिव":1232,"उपलब्":1233,"लगभग":1234,"युवा":1235,"बिना":1236,"भाई":1237,"परीक्षा":1238,"कां":1239,"अस्पताल":1240,"निवार":1241,"रोक":1242,"होंगे":1243,"अति":1244,"हरी":1245,"बल्कि":1246,"बने":1247,"पेश":1248,"भावना":1249,"बयान":1250,"लत":1251,"ख़":1252,"चाहते":1253,"वाप":1254,"प्रया":1255,"चर":1256,"देखा":1257,"एच":1258,"हरिया":1259,"मना":1260,"धु":1261,"मुद्":1262,"ठन":1263,"यात्रा":1264,"मान्य":1265,"चलते":1266,"मेरी":1267,"द्योग":1268,"लगाया":1269,"नेट":1270,"टक":1271,"लगी":1272,"ुष":1273,"त्रि":1274,"शिकायत":1275,"जन्":1276,"बड़ा":1277,"मंगल":1278,"कित":1279,"लक्ष":1280,"लगातार":1281,"शेयर":1282,"क़":1283,"शं":1284,"सोम":1285,"अदा":1286,"सही":1287,"दल":1288,"दिव":1289,"कू":1290,"खास":1291,"उपा":1292,"किसा":1293,"समि":1294,"कहते":1295,"जवाब":1296,"महिलाओं":1297,"पत्रकार":1298,"बंधन":1299,"बनाया":1300,"मजब":1301,"थीं":1302,"सहित":1303,"मजबू":1304,"हाई":1305,"कार्र":1306,"तंत्र":1307,"आदेश":1308,"टेस्ट":1309,"पत्नी":1310,"तृ":1311,"शरी":1312,"चुकी":1313,"कश्मीर":1314,"विभिन्न":1315,"थो":1316,"महत्व":1317,"फैसला":1318,"ोर":1319,"ग्री":1320,"कार्रवाई":1321,"गण":1322,"भाषा":1323,"चर्चा":1324,"घु":1325,"कत":1326,"चू":1327,"राय":1328,"जरूरत":1329,"स्वास्थ":1330,"माह":1331,"पूर":1332,"सले":1333,"सांस":1334,"अर":1335,"मिलने":1336,"विधायक":1337,"किसानों":1338,"अमेरिका":1339,"पंजा":1340,"संस्":1341,"पोस्ट":1342,"सात":1343,"लगता":1344,"उपयोग":1345,"लक":1346,"्रीय":1347,"मिन":1348,"शुक्र":1349,"ंति":1350,"बच्चे":1351,"देखने":1352,"क्ट":1353,"क्षक":1354,"च्या":1355,"ज्ञान":1356,"द्धि":1357,"हरियाणा":1358,"लिखा":1359,"माध्य":1360,"ग्राम":1361,"क्रिकेट":1362,"बिहार":1363,"स्वास्थ्य":1364,"एक्स":1365,"प्रयास":1366,"कला":1367,"लित":1368,"गये":1369,"वेदन":1370,"लिख":1371,"--":1372,"ड्":1373,"चुका":1374,"इंटर":1375,"महारा":1376,"दाय":1377,"तेज":1378,"सदस्य":1379,"लौ":1380,"दिल":1381,"रखने":1382,"टने":1383,"ऑफ":1384,"अंतर":1385,"न्याया":1386,"रों":1387,"विद्यालय":1388,"मीन":1389,"बोर्ड":1390,"अक्":1391,"हिन्":1392,"सोमवार":1393,"िता":1394,"आयोजित":1395,"स्प":1396,"हासिल":1397,"तिहा":1398,"समे":1399,"प्रभा":1400,"गिरफ्तार":1401,"शाह":1402,"गति":1403,"ेंट":1404,"उच्च":1405,"काब":1406,"पीछे":1407,"तला":1408,"पल":1409,"श्वर":1410,"राष्ट्रपति":1411,"कानून":1412,"पित":1413,"अच्छी":1414,"आग":1415,"मरी":1416,"पंचा":1417,"नियम":1418,"ंग्":1419,"सहा":1420,"उपलब्ध":1421,"अवसर":1422,"बुध":1423,"नव":1424,"जिसे":1425,"सुविधा":1426,"गम":1427,"निवेश":1428,"कमी":1429,"वक्त":1430,"ख्":1431,"खू":1432,"जमा":1433,"भीर":1434,"िश":1435,"सड़":1436,"ब्रा":1437,"लाने":1438,"तीस":1439,"सिक":1440,"वर्ग":1441,"जोर":1442,"जाय":1443,"ग्रह":1444,"समिति":1445,"मॉ":1446,"घं":1447,"क्षि":1448,"स्ट्रे":1449,"फाय":1450,"पीएम":1451,"नंबर":1452,"बनाए":1453,"घोषणा":1454,"ह्":1455,"जन्म":1456,"मता":1457,"विकेट":1458,"कारो":1459,"मीण":1460,"क्षित":1461,"वु":1462,"नेताओं":1463,"ष्ण":1464,"लोकसभा":1465,"ग्रामीण":1466,"उम्मीदवार":1467,"वरि":1468,"छोड़":1469,"पहुंचे":1470,"धो":1471,"प्रशासन":1472,"अहम":1473,"सीमा":1474,"शुक्रवार":1475,"दीप":1476,"जाये":1477,"देशों":1478,"आरोपी":1479,"नल":1480,"यूनि":1481,"तय":1482,"ठीक":1483,"हमे":1484,"आपकी":1485,"आवश्य":1486,"कहीं":1487,"संस्था":1488,"स्तु":1489,"मुकाब":1490,"तरा":1491,"पसं":1492,"कार्यकर्":1493,"पहुंचा":1494,"दुर्":1495,"ष्टि":1496,"नरेंद्र":1497,"पंजाब":1498,"आखि":1499,"वार्":1500,"गंभीर":1501,"नही":1502,"जरि":1503,"किल":1504,"शब्":1505,"आर्थ":1506,"बुधवार":1507,"किस":1508,"फॉ":1509,"सोच":1510,"मंगलवार":1511,"अस":1512,"उम":1513,"उल्":1514,"वीं":1515,"ेश":1516,"पश्":1517,"वाज":1518,"कदम":1519,"बदल":1520,"लेज":1521,"तस्वी":1522,"ठे":1523,"बित":1524,"राजनीतिक":1525,"साफ":1526,"पड़ा":1527,"कं":1528,"केंद":1529,"रिक":1530,"रिकॉ":1531,"होकर":1532,"माता":1533,"देना":1534,"मारी":1535,"आद":1536,"मीटर":1537,"हमारी":1538,"मण":1539,"जनवरी":1540,"निका":1541,"शनल":1542,"आं":1543,"ल्स":1544,"कार्ड":1545,"बेहतर":1546,"वुड":1547,"र्च":1548,"फु":1549,"गरी":1550,"रविवार":1551,"आयोग":1552,"बदला":1553,"रहते":1554,"आर्थिक":1555,"बंधित":1556,"बाल":1557,"मार्ग":1558,"ताकि":1559,"वादी":1560,"शनिवार":1561,"निश्":1562,"जल्द":1563,"वरिष्ठ":1564,"शरीर":1565,"बच":1566,"मार्च":1567,"हिस्सा":1568,"प्ला":1569,"गौर":1570,"अप्र":1571,"देवी":1572,"ैल":1573,"चन":1574,"इतना":1575,"गुज":1576,"पंचायत":1577,"थाना":1578,"भ्र":1579,"अभिया":1580,"न्द":1581,"दृ":1582,"खन":1583,"असल":1584,"तारी":1585,"र्जी":1586,"माध्यम":1587,"मुला":1588,"मंत्रा":1589,"ऊपर":1590,"शक्ति":1591,"दर्श":1592,"ढा":1593,"इक":1594,"न्हें":1595,"सोशल":1596,"बाव":1597,"श्रे":1598,"दक्षि":1599,"शाम":1600,"कुर":1601,"म्मे":1602,"टाइ":1603,"वीर":1604,"सुप्री":1605,"छात्र":1606,"ंगी":1607,"केंद्रीय":1608,"कमा":1609,"द्धा":1610,"क्शन":1611,"मोबा":1612,"नया":1613,"वॉ":1614,"तान":1615,"उसी":1616,"वापस":1617,"एजें":1618,"देर":1619,"हिंद":1620,"बनी":1621,"क्ता":1622,"हॉ":1623,"षि":1624,"हाद":1625,"आस":1626,"खरीद":1627,"समर्थन":1628,"फ्र":1629,"पसंद":1630,"प्रक्रिया":1631,"कंपनियों":1632,"डाल":1633,"मेरा":1634,"नै":1635,"ण्या":1636,"सहयोग":1637,"जिक":1638,"एयर":1639,"बल्ले":1640,"ट्रा":1641,"देखते":1642,"भर्":1643,"किंग":1644,"प्रकाश":1645,"पाए":1646,"हमेशा":1647,"विद्य":1648,"आयोजन":1649,"त्मक":1650,"अगले":1651,"आती":1652,"ब्रि":1653,"उद्":1654,"भगवान":1655,"अल":1656,"रल":1657,"कार्":1658,"प्रस्ता":1659,"ृह":1660,"छु":1661,"अभियान":1662,"शुरुआत":1663,"मंडल":1664,"स्थानीय":1665,"यंत्र":1666,"प्ले":1667,"मुस्":1668,"ंडी":1669,"देता":1670,"अर्थ":1671,"जाम":1672,"तेल":1673,"जून":1674,"लीवुड":1675,"कर्मचार":1676,"मंत्रालय":1677,"हूँ":1678,"चले":1679,"फोटो":1680,"घंटे":1681,"प्रयोग":1682,"जाति":1683,"पहचान":1684,"अदालत":1685,"यानी":1686,"र्य":1687,"नारा":1688,"तिम":1689,"निकल":1690,"लागू":1691,"रिश्":1692,"टीवी":1693,"टॉ":1694,"मल":1695,"दोस्त":1696,"शिया":1697,"प्य":1698,"पारी":1699,"जीव":1700,"मक":1701,"हरे":1702,"बज":1703,"घे":1704,"यद":1705,"नुक":1706,"वित्त":1707,"लगाने":1708,"हमला":1709,"जेल":1710,"अगस्त":1711,"नीचे":1712,"बेहद":1713,"पहला":1714,"निकाल":1715,"आतंक":1716,"मोबाइल":1717,"षद":1718,"समु":1719,"सित":1720,"डल":1721,"गठ":1722,"कियों":1723,"महत्वपूर्ण":1724,"दिख":1725,"क्रा":1726,"ल्ला":1727,"तस्वीर":1728,"निवासी":1729,"निय":1730,"हल":1731,"ेंस":1732,"तुम":1733,"बावजूद":1734,"सुप्रीम":1735,"पॉ":1736,"विजय":1737,"जुलाई":1738,"किसान":1739,"....":1740,"आवेदन":1741,"हमने":1742,"साइट":1743,"कवि":1744,"ोह":1745,"कप्ता":1746,"जाएंगे":1747,"ज्य":1748,"बर्":1749,"अंतिम":1750,"बल्लेबा":1751,"प्रदान":1752,"यूपी":1753,"कर्मचारियों":1754,"विश्वास":1755,"भर्ती":1756,"निश्चित":1757,"ंडे":1758,"राजस्थान":1759,"सत्ता":1760,"उससे":1761,"सामा":1762,"मार्ट":1763,"छोटे":1764,"संगठन":1765,"विवाद":1766,"चारी":1767,"आता":1768,"सिटी":1769,"कारा":1770,"खत्म":1771,"लिंग":1772,"अपरा":1773,"किये":1774,"रिकॉर्ड":1775,"जमीन":1776,"जता":1777,"सीबी":1778,"खूब":1779,"उम्र":1780,"यता":1781,"सां":1782,"व्":1783,"निर्ण":1784,"व्यापार":1785,"वेब":1786,"हटा":1787,"काउ":1788,"भूमिका":1789,"धारा":1790,"ंभ":1791,"मंत्र":1792,"मई":1793,"जरी":1794,"स्टा":1795,"सांसद":1796,"रेलवे":1797,"हिंदी":1798,"डो":1799,"वरण":1800,"वत":1801,"फाइन":1802,"नुकसान":1803,"नोट":1804,"अप्रैल":1805,"कृत":1806,"रानी":1807,"पाया":1808,"एंड":1809,"छह":1810,"जिम्मे":1811,"अंदर":1812,"निधि":1813,"बेटी":1814,"तुल":1815,"छात्रों":1816,"साह":1817,"सर्व":1818,"एसपी":1819,"जैसी":1820,"ताब":1821,"पूजा":1822,"जरूरी":1823,"आन":1824,"रोड":1825,"सीएम":1826,"कौन":1827,"दक्षिण":1828,"कराने":1829,"सिद्ध":1830,"निजी":1831,"पना":1832,"मैन":1833,"काली":1834,"ंदा":1835,"खाने":1836,"मिनट":1837,"केश":1838,"आठ":1839,"सों":1840,"कारोबार":1841,"युवक":1842,"घायल":1843,"पढ़":1844,"स्ती":1845,"सुना":1846,"सुधार":1847,"बनने":1848,"साहि":1849,"सलमान":1850,"वोट":1851,"निगम":1852,"पश्चि":1853,"पाठ":1854,"विधि":1855,"मात्र":1856,"दिसं":1857,"पूछ":1858,"दिसंबर":1859,"आतं":1860,"निर्णय":1861,"मुश्":1862,"लड़":1863,"बारिश":1864,"रहता":1865,"ओवर":1866,"ंडा":1867,"पैसे":1868,"तेजी":1869,"चीत":1870,"आते":1871,"समी":1872,"हिमा":1873,"गुजरात":1874,"धिकार":1875,"टेल":1876,"प्रत्य":1877,"मनो":1878,"दियों":1879,"दिशा":1880,"ग्रे":1881,"चरण":1882,"भेज":1883,"उद्योग":1884,"आय":1885,"ऑन":1886,"ियां":1887,"अन्":1888,"वास्त":1889,"कहानी":1890,"ेक":1891,"इन्":1892,"आंद":1893,"लिम":1894,"विपक्ष":1895,"म्स":1896,"बातचीत":1897,"सीसी":1898,"मरा":1899,"देकर":1900,"किलो":1901,"पुरुष":1902,"संबंधित":1903,"बिल":1904,"तरीके":1905,"मियों":1906,"गुरुवार":1907,"साद":1908,"ट्टी":1909,"दिवस":1910,"तिक":1911,"हमले":1912,"प्रेम":1913,"कराया":1914,"प्रेस":1915,"दिखाई":1916,"उनसे":1917,"राज्यों":1918,"आपका":1919,"दावा":1920,"खर्च":1921,"सामाजिक":1922,"करेगा":1923,"आदमी":1924,"िका":1925,"स्पे":1926,"सम्मान":1927,"बॉलीवुड":1928,"समू":1929,"बोल":1930,"जम्":1931,"छू":1932,"ट्रोल":1933,"दोष":1934,"पैदा":1935,"आइ":1936,"दरअसल":1937,"स्टर":1938,"सामान्य":1939,"चंद्र":1940,"ड़ों":1941,"रिक्त":1942,"बदलाव":1943,"आंदोल":1944,"कर्मचारी":1945,"समेत":1946,"कार्यालय":1947,"णाम":1948,"अच्छे":1949,"र्क":1950,"ण्ड":1951,"प्रभाव":1952,"रक्षा":1953,"मला":1954,"ताप":1955,"असर":1956,"वही":1957,"फैसले":1958,"रोजग":1959,"धू":1960,"नवं":1961,"नित":1962,"च्छ":1963,"क्षेत्रों":1964,"सियों":1965,"सड़क":1966,"बारी":1967,"ंची":1968,"नवंबर":1969,"एड":1970,"महाराष्ट्र":1971,"वारी":1972,"प्रस्ताव":1973,"कप्तान":1974,"तत्":1975,"न्यायालय":1976,"संयुक्त":1977,"दस":1978,"लेते":1979,"तियों":1980,"स्ट्रेलिया":1981,"सितं":1982,"प्रभावित":1983,"सितंबर":1984,"कृष्ण":1985,"फ्ट":1986,"पण":1987,"इतिहा":1988,"अरब":1989,"धानी":1990,"शै":1991,"जम्मू":1992,"सेक्स":1993,"पर्य":1994,"विषय":1995,"सामना":1996,"कपूर":1997,"उत":1998,"लाया":1999,"इतिहास":2000,"तृत्व":2001,"रहेगा":2002,"आईपी":2003,"मगर":2004,"न्याय":2005,"साय":2006,"स्क्री":2007,"गृह":2008,"डॉलर":2009,"स्कू":2010,"मुस्लिम":2011,"सिर":2012,"पड़":2013,"टेड":2014,"रहती":2015,"परिणाम":2016,"संभावना":2017,"विरा":2018,"म्ह":2019,"स्वयं":2020,"ंदगी":2021,"स्टि":2022,"पर्या":2023,"वैसे":2024,"सफलता":2025,"खर":2026,"वायर":2027,"गलत":2028,"भविष":2029,"जरिए":2030,"ट्वी":2031,"ील":2032,"साबित":2033,"नौकरी":2034,"मिलेगा":2035,"मुकाबले":2036,"स्ते":2037,"यहाँ":2038,"न्स":2039,"पंच":2040,"शायद":2041,"नेतृत्व":2042,"इलाके":2043,"म्प":2044,"भविष्य":2045,"विस्त":2046,"कित्":2047,"समार":2048,"लक्ष्य":2049,"कोह":2050,"पड़े":2051,"ड्रा":2052,"चिकित्":2053,"केस":2054,"प्यार":2055,"डिंग":2056,"रोग":2057,"माने":2058,"जाकर":2059,"शील":2060,"गौ":2061,"नेशनल":2062,"वर्त":2063,"रिंग":2064,"लखन":2065,"मजबूत":2066,"परिषद":2067,"पथ":2068,"सारे":2069,"प्रवेश":2070,"याचि":2071,"आंदोलन":2072,"करोड़":2073,"बेटे":2074,"गैर":2075,"उन्":2076,"लास":2077,"शक":2078,"ताल":2079,"फिल":2080,"रज":2081,"परियोजना":2082,"मौसम":2083,"ल्क":2084,"संचा":2085,"करेगी":2086,"परं":2087,"रीज":2088,"तू":2089,"स्थापित":2090,"मैदान":2091,"कही":2092,"चंद":2093,"बजट":2094,"दौर":2095,"खुला":2096,"निदेश":2097,"नियंत्र":2098,"समारोह":2099,"ष्टा":2100,"निंग":2101,"फरवरी":2102,"आंक":2103,"अने":2104,"सजा":2105,"पेट":2106,"ंता":2107,"पाई":2108,"शित":2109,"बीर":2110,"मूल्य":2111,"योगी":2112,"लिका":2113,"खिलाड़ी":2114,"बड़ी":2115,"दूसरा":2116,"हल्":2117,"प्रचार":2118,"स्क्रीन":2119,"गुण":2120,"जुड़े":2121,"ंज":2122,"ट्वीट":2123,"सारी":2124,"आउ":2125,"र्न":2126,"जानते":2127,"स्मार्ट":2128,"प्रतिनिधि":2129,"डॉक्टर":2130,"वां":2131,"याचिका":2132,"छि":2133,"निशा":2134,"अंक":2135,"बाबा":2136,"दय":2137,"छात्रा":2138,"शव":2139,"वाहन":2140,"वर्ण":2141,"तैय":2142,"चुना":2143,"थम":2144,"स्त्र":2145,"खराब":2146,"अक्टू":2147,"अतिरिक्त":2148,"कृषि":2149,"मौका":2150,"अक्टूबर":2151,"कात":2152,"सूची":2153,"कीय":2154,"यात":2155,"इट":2156,"जिसका":2157,"खिल":2158,"सप्ता":2159,"लखनऊ":2160,"इंत":2161,"कारों":2162,"प्रसाद":2163,"पुत्र":2164,"अमेरिकी":2165,"शू":2166,"संभव":2167,"रोजगार":2168,"अग्र":2169,"रिली":2170,"इनमें":2171,"पाने":2172,"खुश":2173,"सिंग":2174,"डाय":2175,"स्टार":2176,"धरी":2177,"ंच्या":2178,"स्पष्ट":2179,"विश्वविद्यालय":2180,"र्जा":2181,"कोहली":2182,"अमित":2183,"शर":2184,"फू":2185,"बंदी":2186,"तभी":2187,"तकनी":2188,"जम":2189,"लगाए":2190,"निदेशक":2191,"डू":2192,"पीड़":2193,"धीरे":2194,"दिग्":2195,"चाहता":2196,"वक्ता":2197,"पर्क":2198,"जनों":2199,"दास":2200,"देखकर":2201,"गेंदबा":2202,"शांति":2203,"रित":2204,"वर्तमान":2205,"सुनवाई":2206,"दुकान":2207,"कॉलेज":2208,"जैसा":2209,"इंग्":2210,"इलाज":2211,"बताते":2212,"फाइनल":2213,"फिलहाल":2214,"ट्रै":2215,"आयु":2216,"चुनौ":2217,"वृद्धि":2218,"शुभ":2219,"गार":2220,"मुश्किल":2221,"घोषित":2222,"वाही":2223,"सूत्रों":2224,"अली":2225,"फाई":2226,"शब्द":2227,"संजय":2228,"दर्द":2229,"संबो":2230,"विदेशी":2231,"सून":2232,"साठी":2233,"हान":2234,"लियों":2235,"ऑनलाइन":2236,"करार":2237,"शोक":2238,"उसमें":2239,"स्ट्री":2240,"तील":2241,"बरा":2242,"पौ":2243,"नदी":2244,"म्बर":2245,"सलाह":2246,"रॉ":2247,"लड़की":2248,"मामलों":2249,"मुद्दे":2250,"एसटी":2251,"वती":2252,"क्रे":2253,"सप्ताह":2254,"टिकट":2255,"आउट":2256,"नती":2257,"वेबसाइट":2258,"णे":2259,"तैयारी":2260,"ड्र":2261,"ळे":2262,"लेश":2263,"कमे":2264,"नु":2265,"राजधानी":2266,"वैध":2267,"उपस्थित":2268,"श्न":2269,"हिमाचल":2270,"राजा":2271,"संभा":2272,"उत्पादन":2273,"नक":2274,"गाय":2275,"सुनी":2276,"पुन":2277,"लान":2278,"स्टी":2279,"क्षमता":2280,"मर्":2281,"तीश":2282,"परेशा":2283,"ठाकुर":2284,"पृ":2285,"जिसकी":2286,"स्त्री":2287,"ज़ा":2288,"शानदार":2289,"मानव":2290,"तुर":2291,"पन्न":2292,"कथ":2293,"गठबंधन":2294,"नियर":2295,"लोड":2296,"राहत":2297,"कने":2298,"स्टेशन":2299,"पुरस्":2300,"कल्प":2301,"आखिर":2302,"दाम":2303,"शाला":2304,"स्वामी":2305,"मोहन":2306,"पत":2307,"पहुंची":2308,"सीरीज":2309,"मज":2310,"युद्ध":2311,"ंसी":2312,"इतनी":2313,"सिस्ट":2314,"बिल्":2315,"ष्टाचार":2316,"त्मा":2317,"लेक्":2318,"खों":2319,"बारा":2320,"मंजू":2321,"खाना":2322,"मिलता":2323,"इस्ला":2324,"तलब":2325,"पें":2326,"साध":2327,"नाटक":2328,"बत":2329,"ट्रेन":2330,"केले":2331,"बंगा":2332,"रेट":2333,"अनेक":2334,"हार्":2335,"साहित्य":2336,"करनी":2337,"गोली":2338,"देती":2339,"रखी":2340,"वेद":2341,"पत्ति":2342,"न्होंने":2343,"ऑफि":2344,"हम्":2345,"परेशान":2346,"ुप":2347,"श्रा":2348,"समूह":2349,"सूस":2350,"णि":2351,"दवा":2352,"आर्":2353,"ब्लॉ":2354,"तमाम":2355,"चार्":2356,"स्ट्र":2357,"सुख":2358,"बनाकर":2359,"पढ़ें":2360,"अंग्रे":2361,"स्वतंत्र":2362,"क्कर":2363,"बातें":2364,"ौल":2365,"इनके":2366,"हमारा":2367,"छोटी":2368,"मुलाकात":2369,"नागरि":2370,"चाहे":2371,"जॉ":2372,"संसद":2373,"विराट":2374,"राह":2375,"मति":2376,"पान":2377,"स्थल":2378,"उठ":2379,"जरूर":2380,"टिस":2381,"चली":2382,"हरण":2383,"ट्रो":2384,"अनुभव":2385,"भ्रष्टाचार":2386,"लेना":2387,"वर्षों":2388,"अनि":2389,"हालत":2390,"शराब":2391,"क्रो":2392,"कृतिक":2393,"तोड़":2394,"ट्री":2395,"सदस्यों":2396,"स्वीकार":2397,"फिल्मों":2398,"बनाई":2399,"भवन":2400,"रखते":2401,"ग्राह":2402,"खोल":2403,"विकल्प":2404,"समान":2405,"श्रद्धा":2406,"केशन":2407,"सार्":2408,"न्ना":2409,"इंडि":2410,"मतदान":2411,"चाहती":2412,"इम":2413,"कोर":2414,"सच":2415,"शीर्ष":2416,"मेडि":2417,"चिंता":2418,"आपने":2419,"धम":2420,"चौधरी":2421,"ग्रहण":2422,"ब्रे":2423,"रचना":2424,"धिकारी":2425,"लेट":2426,"पट":2427,"फायदा":2428,"बाकी":2429,"केन्द्र":2430,"सुपर":2431,"शिक्षण":2432,"गरीब":2433,"हिस्से":2434,"डिग्री":2435,"गिराव":2436,"आवश्यक":2437,"बड़े":2438,"डु":2439,"गिरावट":2440,"वार्ड":2441,"करि":2442,"निस":2443,"संघर्ष":2444,"सीटों":2445,"समाप्त":2446,"रं":2447,"देंगे":2448,"कार्यकर्ताओं":2449,"मेल":2450,"पूछा":2451,"नू":2452,"मानित":2453,"घरे":2454,"प्रथम":2455,"सालों":2456,"कोल":2457,"संपर्क":2458,"नाक":2459,"हिंसा":2460,"कब":2461,"हम्मद":2462,"धिक":2463,"प्राथ":2464,"भीतर":2465,"निभा":2466,"एशिया":2467,"दबाव":2468,"विमान":2469,"पश्चिम":2470,"कब्":2471,"जैन":2472,"उनको":2473,"मतलब":2474,"महसूस":2475,"र्ति":2476,"बैठे":2477,"समाचार":2478,"पूर्ति":2479,"शुल्क":2480,"मिलकर":2481,"छत्":2482,",,":2483,"द्रा":2484,"संगी":2485,"नॉ":2486,"सुरक्षित":2487,"अंदा":2488,"अध्या":2489,"त्ति":2490,"केजरी":2491,"शांत":2492,"पिक":2493,"मौजू":2494,"सत्र":2495,"इंग्लैंड":2496,"प्रत्या":2497,"आनंद":2498,"सीबीआई":2499,"संबोधित":2500,"पैसा":2501,"आगा":2502,"रिलीज":2503,"पात":2504,"बैं":2505,"नियां":2506,"तुलना":2507,"केजरीवाल":2508,"मौजूदा":2509,"बिग":2510,"भुग":2511,"योग्य":2512,"कठ":2513,"र्गत":2514,"गुप्ता":2515,"टका":2516,"पियों":2517,"मंच":2518,"लाना":2519,"अंतरराष्ट्रीय":2520,"भेजा":2521,"माँ":2522,"त्कार":2523,"निर्धार":2524,"आसान":2525,"वर्षीय":2526,"मात्रा":2527,"चढ़":2528,"ाई":2529,"संवाद":2530,"वर्तन":2531,"खार":2532,"छत्तीस":2533,"अचान":2534,"सब्":2535,"चयन":2536,"अचानक":2537,"उत्तरा":2538,"भुगतान":2539,"प्रबंधन":2540,"रैली":2541,"ब्ल":2542,"मस्":2543,"शास":2544,"हेतु":2545,"ट्यू":2546,"आश्":2547,"आवश्यकता":2548,"दाता":2549,"अक्ष":2550,"बाजी":2551,"सानी":2552,"पदों":2553,"ज्ञापन":2554,"किर":2555,"स्वागत":2556,"प्रत्येक":2557,"टिप्":2558,"ऑस्ट्रेलिया":2559,"तीसरे":2560,"हिन्दी":2561,"वहार":2562,"चुनावों":2563,"हिर":2564,"बंगाल":2565,"आजा":2566,"क्यू":2567,"गेंद":2568,"नात":2569,"साई":2570,"्यु":2571,"करण्या":2572,"समझौ":2573,"जर्":2574,"घू":2575,"अथ":2576,"गंगा":2577,"आईटी":2578,"एजेंसी":2579,"फार्":2580,"अपराध":2581,"लॉन्":2582,"अवधि":2583,"रोज":2584,"पुराने":2585,"शॉ":2586,"न्तु":2587,"मृत":2588,"क्का":2589,"तुरंत":2590,"आये":2591,"टों":2592,"पुरस्कार":2593,"दोस्तों":2594,"सहायता":2595,"प्रतियोग":2596,"मिलेगी":2597,"बन्":2598,"विस्तार":2599,"झू":2600,"गौरतलब":2601,"मुना":2602,"अवैध":2603,"मुक्त":2604,"सॉ":2605,"अमरी":2606,"मनी":2607,"आतंकी":2608,"घरेलू":2609,"टिक":2610,"टियों":2611,"दूध":2612,"वेतन":2613,"सव":2614,"पालन":2615,"यण":2616,"सार्वज":2617,"शौ":2618,"उतर":2619,"प्रिय":2620,"मानना":2621,"उल्लेख":2622,"सार्वजनिक":2623,"मानों":2624,"ड़ियों":2625,"मैने":2626,"कल्या":2627,"जुर्":2628,"माया":2629,"सपा":2630,"पदा":2631,"विरोधी":2632,"समझा":2633,"ब्यू":2634,"चुनौती":2635,"प्रस्तु":2636,"बिक्री":2637,"पटेल":2638,"सबुक":2639,"थाने":2640,"विद्या":2641,"नरे":2642,"हवा":2643,"वेस्ट":2644,"ंडर":2645,"प्रभारी":2646,"जाग":2647,"दीन":2648,"संस्कृति":2649,"चार्य":2650,"मशी":2651,"सेक्टर":2652,"कालीन":2653,"अख":2654,"तलाश":2655,"ेंड":2656,"लंबे":2657,"कमेटी":2658,"तें":2659,"बेच":2660,"पुरी":2661,"ऊर्जा":2662,"सत्य":2663,"दृष्टि":2664,"इन्हें":2665,"जिंदगी":2666,"प्रार":2667,"बड़ा":2668,"तरण":2669,"टेन":2670,"अशोक":2671,"डाउन":2672,"संस्थान":2673,"च्छा":2674,"ईरान":2675,"ळी":2676,"स्तानी":2677,"शोर":2678,"सैन":2679,"लक्ष्":2680,"विज्ञान":2681,"कथित":2682,"आधारित":2683,"मुक":2684,"आरोपियों":2685,"मेलन":2686,"प्ति":2687,"अधी":2688,"ग़":2689,"ंचे":2690,"किताब":2691,"किलोमीटर":2692,"पहर":2693,"रखे":2694,"सूरत":2695,"प्रवक्ता":2696,"हिंदू":2697,"बीते":2698,"वायरल":2699,"यंका":2700,"जिन्हें":2701,"हाथों":2702,"सम्मेलन":2703,"लड़ा":2704,"कर्मियों":2705,"कैं":2706,"पीट":2707,"मिशन":2708,"णार":2709,"उत्पाद":2710,"साब":2711,"वास्तव":2712,"चीनी":2713,"मेडिकल":2714,"अनुमति":2715,"ग्रुप":2716,"कल्याण":2717,"तः":2718,"्याज":2719,"चोरी":2720,"युवाओं":2721,"अध्य":2722,"अपील":2723,"स्पी":2724,"श्रम":2725,"चित्र":2726,"मारे":2727,"बढ़ाने":2728,"डीएम":2729,"मोर्":2730,"नवी":2731,"इड":2732,"गीत":2733,"दोपहर":2734,"शोध":2735,"रखना":2736,"संविधान":2737,"ण्":2738,"झार":2739,"चाई":2740,"वनी":2741,"सफाई":2742,"शिक्षक":2743,"लिस्ट":2744,"आसपास":2745,"जमकर":2746,"गढ़":2747,"ळा":2748,"जिनमें":2749,"रिश्ते":2750,"खाते":2751,"अक्सर":2752,"भागी":2753,"सिया":2754,"बोले":2755,"फेसबुक":2756,"जल्दी":2757,"पेट्रोल":2758,"स्कूलों":2759,"शिकार":2760,"पटना":2761,"जिन्होंने":2762,"गैस":2763,"प्रश्न":2764,"दाबाद":2765,"तीनों":2766,"आखिरी":2767,"प्रबंध":2768,"व्र":2769,"दै":2770,"खाली":2771,"गन":2772,"मोहम्मद":2773,"कर्ज":2774,"सरों":2775,"मेश":2776,"चैनल":2777,"बहन":2778,"बाला":2779,"अंग":2780,"आसानी":2781,"शिप":2782,"ँच":2783,"टैक्स":2784,"रहें":2785,"जोड़":2786,"उदा":2787,"जायेगा":2788,"संके":2789,"बढ़ा":2790,"सीधे":2791,"दारों":2792,"उनमें":2793,"कविता":2794,"कार्यकर्ता":2795,"दलों":2796,"परिजनों":2797,"चंडी":2798,"बीएस":2799,"धार्":2800,"लंका":2801,"प्रमाण":2802,"स्टेट":2803,"साथी":2804,"रहेगी":2805,"गाने":2806,"मॉडल":2807,"इतने":2808,"उद्देश":2809,"हालात":2810,"भरो":2811,"रीन":2812,"वाना":2813,"रहेंगे":2814,"चलने":2815,"शंकर":2816,"धोनी":2817,"टिव":2818,"लागत":2819,"ंनी":2820,"वर्क":2821,"अनिल":2822,"सवार":2823,"स्टो":2824,"नम":2825,"पीठ":2826,"वैज्ञा":2827,"घन":2828,"मेह":2829,"प्रियंका":2830,"मंडी":2831,"बें":2832,"अफ्री":2833,"मिलती":2834,"ड्यू":2835,"बैंकों":2836,"उतार":2837,"ढे":2838,"ध्":2839,"प्रतियोगिता":2840,"अश्":2841,"चेहरे":2842,"आकर्":2843,"भारती":2844,"ट्वि":2845,"संशो":2846,"जिम्मेदारी":2847,"हरि":2848,"परेशानी":2849,"बीमार":2850,"निष्":2851,"फ्रा":2852,"शही":2853,"नियंत्रण":2854,"कॉम":2855,"मिता":2856,"वायु":2857,"पड़ता":2858,"धार्मिक":2859,"व्यक्त":2860,"गाँ":2861,"बाइक":2862,"लगने":2863,"शिमला":2864,"उधर":2865,"आवाज":2866,"वित्":2867,"वेज":2868,"रखें":2869,"पूछता":2870,"तिथि":2871,"ट्रंप":2872,"व्यवहार":2873,"उपभो":2874,"संगठ":2875,"बराम":2876,"नागरिक":2877,"माहौल":2878,"जवान":2879,"लगाई":2880,"भले":2881,"घोटा":2882,"माइ":2883,"आकर":2884,"हथि":2885,"उद्देश्य":2886,"मश":2887,"अखि":2888,"अजय":2889,"पुल":2890,"गोल":2891,"न्हा":2892,"हड़":2893,"गज":2894,"्राम":2895,"ार्थियों":2896,"आत्म":2897,"नियमित":2898,"वासियों":2899,"यंस":2900,"बाग":2901,"वकी":2902,"समुदाय":2903,"तह":2904,"बीमारी":2905,"जेट":2906,"क्के":2907,"प्रती":2908,"अखबार":2909,"रुण":2910,"्यूटर":2911,"रोहित":2912,"हथियार":2913,"द्वि":2914,"संगीत":2915,"सोने":2916,"दूरी":2917,"वित्तीय":2918,"मनुष":2919,"वार्ता":2920,"कर्नाटक":2921,"होनी":2922,"कड़ी":2923,"टरी":2924,"अखिलेश":2925,"हाउस":2926,"निर्धारित":2927,"सामान":2928,"संर":2929,"मनुष्य":2930,"तुम्ह":2931,"संत":2932,"मानी":2933,"यांनी":2934,"हफ्":2935,"रोकने":2936,"षा":2937,"फुट":2938,"संपत्ति":2939,"प्राइ":2940,"तनाव":2941,"मिलना":2942,"पकड़":2943,"छोड़":2944,"सहायक":2945,"तल":2946,"भोपाल":2947,"गईं":2948,"दित":2949,"द्द":2950,"पहा":2951,"संकट":2952,"वानी":2953,"आहेत":2954,"ंदन":2955,"इस्ती":2956,"जनक":2957,"ज्यो":2958,"दरा":2959,"निरा":2960,"घरों":2961,"वधान":2962,"टॉप":2963,"िल्":2964,"इंडियन":2965,"मती":2966,"ंना":2967,"कले":2968,"परिवर्तन":2969,"खुलासा":2970,"काउंट":2971,"एशन":2972,"संबंधी":2973,"आलो":2974,"वर्मा":2975,"सुंदर":2976,"अमर":2977,"रास्ते":2978,"हिसाब":2979,"तोष":2980,"ऑपरे":2981,"स्थापना":2982,"निरी":2983,"सिस्टम":2984,"कानू":2985,"न्यूज":2986,"रूम":2987,"बरामद":2988,"लादेश":2989,"वस्तु":2990,"हद":2991,"प्रकाशित":2992,"पत्रकारों":2993,"चौहान":2994,"छूट":2995,"यूरो":2996,"ग्रामीणों":2997,"यें":2998,"प्रणा":2999,"यूनिवर्":3000,"सेल":3001,"मैचों":3002,"ार्ड":3003,"फंड":3004,"निर्वा":3005,"संदेश":3006,"आदित्य":3007,"हादसे":3008,"होटल":3009,"नीतीश":3010,"इंतजार":3011,"ूप":3012,"कार्यों":3013,"बांध":3014,"मुळे":3015,"मच":3016,"कारात्मक":3017,"सहम":3018,"समाधान":3019,"खुशी":3020,"जनरल":3021,"विकसित":3022,"वर्ल्ड":3023,"सूर्य":3024,"बांग्":3025,"जात":3026,"लौट":3027,"एँ":3028,"देखें":3029,"त्रियों":3030,"श्रीलंका":3031,"पीसी":3032,"पूछताछ":3033,"पहल":3034,"निकों":3035,"लाइट":3036,"उठाया":3037,"विवाह":3038,"बद्ध":3039,"न्त":3040,"कितना":3041,"चुनावी":3042,"फार":3043,"निशाना":3044,"मध्यप्रदेश":3045,"गतिविधि":3046,"बचाने":3047,"स्तक":3048,"सुनिश्चित":3049,"रियल":3050,"बान":3051,"उंड":3052,"शिक्ष":3053,"कक्षा":3054,"भोजन":3055,"सर्वे":3056,"भूल":3057,"एसएस":3058,"पड़ी":3059,"बहा":3060,"गठन":3061,"क्सी":3062,"नामा":3063,"पाकिस्तानी":3064,"षित":3065,"अध्ययन":3066,"जाएं":3067,"इलेक्":3068,"भाग्य":3069,"आगामी":3070,"पहुंचने":3071,"द्वार":3072,"समस्याओं":3073,"डाउनलोड":3074,"आपूर्ति":3075,"ज्यादातर":3076,"माग":3077,"हिंदु":3078,"लॉन्च":3079,"फॉर्म":3080,"इंटरनेट":3081,"इका":3082,"काट":3083,"नय":3084,"सारा":3085,"रणनीति":3086,"भरा":3087,"मुद्रा":3088,"इच्छा":3089,"टिया":3090,"लियन":3091,"शाल":3092,"ंकन":3093,"दिक":3094,"ंजी":3095,"पियन":3096,"अध्यक्षता":3097,"कमल":3098,"रेप":3099,"दौरे":3100,"बला":3101,"फें":3102,"अंतर्गत":3103,"सेट":3104,"इलाकों":3105,"बेहत":3106,"हराया":3107,"सच्":3108,"खुल":3109,"जर्स":3110,"मंजूरी":3111,"चेयर":3112,"उल":3113,"स्वच्छ":3114,"चालक":3115,"सील":3116,"इनकी":3117,"हाईकोर्ट":3118,"धारण":3119,"रस":3120,"आरक्षण":3121,"काता":3122,"मशीन":3123,"फसल":3124,"जीएसटी":3125,"सेज":3126,"नज":3127,"ैंड":3128,"कहने":3129,"मेहन":3130,"ज्योति":3131,"जुड़ी":3132,"नोटिस":3133,"पाद":3134,"वेट":3135,"ड्राइ":3136,"मजदूर":3137,"टेक्":3138,"काले":3139,"नतम":3140,"घट":3141,"कॉन्":3142,"अथवा":3143,"इयों":3144,"लिमि":3145,"सका":3146,"सेवन":3147,"चौक":3148,"इंजी":3149,"झारखंड":3150,"तैनात":3151,"कराई":3152,"प्रशिक्षण":3153,"बल्लेबाज":3154,"लगाकर":3155,"प्रणाली":3156,"चलता":3157,"कमजोर":3158,"खड़े":3159,"शहरों":3160,"बजाय":3161,"शतक":3162,"प्रत्याशी":3163,"्त":3164,"युक्ति":3165,"आवास":3166,"स्वरूप":3167,"हवाई":3168,"अब्":3169,"महिलाएं":3170,"विस":3171,"समीक्षा":3172,"योजनाओं":3173,"उम्मीदवारों":3174,"र्ना":3175,"फ्री":3176,"-,":3177,"सौं":3178,"स्मार्टफोन":3179,"उचित":3180,"इश":3181,"योगदान":3182,"संकेत":3183,"जिए":3184,"दलित":3185,"रहना":3186,"जिलों":3187,"राजीव":3188,"अरवि":3189,"लयों":3190,"दिये":3191,"कोच":3192,"रास्ता":3193,"क्लिक":3194,"उत्तराखंड":3195,"चंडीगढ़":3196,"नयी":3197,"सक्रि":3198,"आईपीएल":3199,"प्रसार":3200,"घाट":3201,"विशेषज्ञ":3202,"कहां":3203,"पाक":3204,"यूनिवर्सिटी":3205,"लिहा":3206,"कोण":3207,"कोलकाता":3208,"उड़ा":3209,"शाली":3210,"व्यू":3211,"वहन":3212,"इजा":3213,"धीश":3214,"श्रेष्ठ":3215,"टाई":3216,"अनुमान":3217,"इरा":3218,"मेर":3219,"बांग्लादेश":3220,"ार्थी":3221,"िज":3222,"नेह":3223,"सास":3224,"अर्थव्यवस्था":3225,"पर्यावरण":3226,"ख्त":3227,"वाने":3228,"एंगे":3229,"मुंह":3230,"बुरा":3231,"अभिने":3232,"नाराज":3233,"ोतरी":3234,"काश":3235,"चक":3236,"खोज":3237,"ट्रांस":3238,"तिवारी":3239,"सोसि":3240,"उदाहरण":3241,"त्यु":3242,"पशु":3243,"किस्":3244,"यकों":3245,"शब्दों":3246,"करियर":3247,"ऑफिस":3248,"चय":3249,"बोला":3250,"पहन":3251,"मकान":3252,"सम्मानित":3253,"ट्विटर":3254,"इंद":3255,"दस्ता":3256,"बाई":3257,"वनडे":3258,"सड़":3259,"उपाध्यक्ष":3260,"शिवसेना":3261,"खड़ा":3262,"बच्ची":3263,"एका":3264,"मिश्रा":3265,"अफ्रीका":3266,"अनुर":3267,"जेक्ट":3268,"जंग":3269,"न्यास":3270,"किरा":3271,"केरल":3272,"दीपक":3273,"वाय":3274,"जिद":3275,"कर्ता":3276,"भक्त":3277,"परिसर":3278,"संतु":3279,"बातों":3280,"माही":3281,"घुस":3282,"जहाँ":3283,"पार्ट":3284,"आणि":3285,"केला":3286,"मृत्यु":3287,"स्टॉ":3288,"मोह":3289,"सेंटर":3290,"वापसी":3291,"स्पि":3292,"दुल":3293,"बोली":3294,"देह":3295,"शंका":3296,"महंगा":3297,"कमरे":3298,"प्रदू":3299,"नार":3300,"ज़ि":3301,"ड्डा":3302,"अग्रवाल":3303,"मुझ":3304,"बानी":3305,"बेहतरीन":3306,"नेस":3307,"यात्रियों":3308,"गांवों":3309,"रजि":3310,"ंदी":3311,"पटा":3312,"डियम":3313,"हारे":3314,"नक्स":3315,"देगा":3316,"व्हा":3317,"पावर":3318,"हिन्दू":3319,"विवा":3320,"कोट":3321,"लाखों":3322,"अभिनेता":3323,"ट्रि":3324,"राज्यपाल":3325,"आत्":3326,"पुरानी":3327,"धमकी":3328,"मंद":3329,"बनाना":3330,"मनाया":3331,"स्पर्":3332,"उक्त":3333,"भीड़":3334,"अना":3335,"गुला":3336,"मालिक":3337,"देखी":3338,"हफ्ते":3339,"ज़ा":3340,"कर्मी":3341,"पने":3342,"जागर":3343,"सागर":3344,"वैश्":3345,"लेन":3346,"महासचिव":3347,"सकें":3348,"परंतु":3349,"जीतने":3350,"छत्तीसगढ़":3351,"कोरिया":3352,"साहब":3353,"पदक":3354,"चेता":3355,"ऐलान":3356,"चार्ज":3357,"गुस्":3358,"अंग्रेजी":3359,"वाहनों":3360,"डेट":3361,"कीमतों":3362,"देखना":3363,"लम्":3364,"गाड़ी":3365,"कामया":3366,"उपचार":3367,"दाताओं":3368,"्वी":3369,"कमाई":3370,"काला":3371,"स्य":3372,"प्लान":3373,"श्रेणी":3374,"ज़र":3375,"सेव":3376,"सुनील":3377,"डायरे":3378,"जयपुर":3379,"आना":3380,"झु":3381,"कॉल":3382,"पैर":3383,"गेट":3384,"धियों":3385,"उपाय":3386,"भेद":3387,"कथा":3388,"मेहनत":3389,"नियुक्ति":3390,"नारायण":3391,"देशा":3392,"थर":3393,"दिखाया":3394,"कन":3395,"ेंज":3396,"सर्च":3397,"किरदार":3398,"डाला":3399,"आवा":3400,"मिलते":3401,"प्रस्तुत":3402,"मेश्वर":3403,"टें":3404,"गंज":3405,"चारों":3406,"ऐप":3407,"संशोधन":3408,"ौन":3409,"फं":3410,"भाषण":3411,"हिक":3412,"नियमों":3413,"जरा":3414,"फूल":3415,"दस्त":3416,"महान":3417,"धुनिक":3418,"बादी":3419,"अह":3420,"मित्र":3421,"पार्क":3422,"हिरा":3423,"दोषी":3424,"खेले":3425,"लिमिटेड":3426,"वली":3427,"क्षी":3428,"करवाया":3429,"आईए":3430,"दुर्घटना":3431,"कितने":3432,"चाल":3433,"तिहासिक":3434,"एसोसि":3435,"एक्सप्रेस":3436,"विशाल":3437,"रनों":3438,"लियां":3439,"वादियों":3440,"ब्रह्":3441,"हारी":3442,"जिनके":3443,"रूस":3444,"डीजल":3445,"बिल्कुल":3446,"स्कोर":3447,"प्रतिक्रिया":3448,"डीए":3449,"विद्यु":3450,"बधा":3451,"दरवा":3452,"नये":3453,"केली":3454,"डें":3455,"मिलाकर":3456,"ममता":3457,"ट्रक":3458,"ट्रॉ":3459,"पर्व":3460,"हैया":3461,"ंकिंग":3462,"तारीख":3463,"खला":3464,"गुजर":3465,"काने":3466,"रुद्ध":3467,"खुले":3468,"हजारों":3469,"जाहिर":3470,"सचिन":3471,"भरोसा":3472,"सीख":3473,"लेंगे":3474,"रहीं":3475,"वैश्विक":3476,"सीय":3477,"बेड":3478,"सामग्री":3479,"ख्य":3480,"ूं":3481,"कानूनी":3482,"मुकद":3483,"राग":3484,"िंग":3485,"गिरा":3486,"ण्यात":3487,"हाबाद":3488,"पंड":3489,"करवाने":3490,"कितनी":3491,"तस्वीरें":3492,"सुझा":3493,"दुष्":3494,"ज्ञात":3495,"वकील":3496,"प्रताप":3497,"जिसने":3498,"रोल":3499,"लक्ष्मी":3500,"जुन":3501,"वाणी":3502,"मध्ये":3503,"ताकत":3504,"क्की":3505,"मृतक":3506,"शहीद":3507,"ख्स":3508,"स्टू":3509,"मोटर":3510,"ल्हा":3511,"रेखा":3512,"रोह":3513,"मानते":3514,"नवा":3515,"मुफ्":3516,"मिश्र":3517,"कामना":3518,"ऑटो":3519,"खतरा":3520,"लाश":3521,"पीने":3522,"काउं":3523,"लालू":3524,"आँ":3525,"लगती":3526,"जताई":3527,"पालिका":3528,"रद्द":3529,"हैदरा":3530,"सूचित":3531,"कम्प":3532,"विल":3533,"फरी":3534,"शख्स":3535,"जगत":3536,"चैं":3537,"साधन":3538,"विजे":3539,"लेखक":3540,"कस":3541,"अभिनेत्री":3542,"आशा":3543,"तत्व":3544,"नाही":3545,"प्रतिबंध":3546,"ंधे":3547,"खिलाड़ियों":3548,"खेलने":3549,"ल्टी":3550,"हैदराबाद":3551,"हट":3552,"स्कर":3553,"घाटन":3554,"शपथ":3555,"षक":3556,"राजेश":3557,"तुर्":3558,"खाद्य":3559,"कार्यवाही":3560,"जरिये":3561,"ट्रेस":3562,"वत्ता":3563,"जिम्मेदार":3564,"जस्टि":3565,"चुन":3566,"पीड़ित":3567,"मान्यता":3568,"आतंकवाद":3569,"्यास":3570,"चलाने":3571,"सिने":3572,"शूटिंग":3573,"पणी":3574,"डीपी":3575,"मुद्दों":3576,"वसू":3577,"स्वतंत्रता":3578,"खून":3579,"बम":3580,"इंसान":3581,"बधाई":3582,"पृथ":3583,"परंपरा":3584,"सक्रिय":3585,"दर्भ":3586,"टेली":3587,"पब्":3588,"लंबी":3589,"पांडे":3590,"विधायकों":3591,"सोना":3592,"होम":3593,"ऐतिहासिक":3594,"भूत":3595,"चिकित्सा":3596,"संचार":3597,"ग्राहकों":3598,"आलोचना":3599,"मुद्दा":3600,"विवे":3601,"डि़":3602,"माश":3603,"जागरू":3604,"टूर्ना":3605,"सन्":3606,"भरी":3607,"उसको":3608,"स्थानों":3609,"चेन्न":3610,"क्षम":3611,"हूर":3612,"जवानों":3613,"नियुक्त":3614,"क्ला":3615,"पदार्थ":3616,"अरविंद":3617,"अंदाज":3618,"मरे":3619,"ऋण":3620,"गणेश":3621,"फायदे":3622,"चेयरमैन":3623,"गुणवत्ता":3624,"िल्म":3625,"विभा":3626,"श्या":3627,"अक्षय":3628,"टिप्पणी":3629,"टीएम":3630,"संतोष":3631,"केदार":3632,"दोबारा":3633,"मनोज":3634,"उपकरण":3635,"लिटी":3636,"आशंका":3637,"डिजा":3638,"सीए":3639,"कैंसर":3640,"बसपा":3641,"अत्य":3642,"रक्त":3643,"वंत":3644,"लोगो":3645,"गुना":3646,"शिक":3647,"दिवसीय":3648,"दिला":3649,"संग्र":3650,"दशक":3651,"चाय":3652,"थ्य":3653,"विवि":3654,"महज":3655,"नेश":3656,"क्लब":3657,"पूर्वी":3658,"सीपी":3659,"आले":3660,"संगठनों":3661,"लूट":3662,"टूर्नामेंट":3663,"लम":3664,"वेयर":3665,"क्रमण":3666,"नारे":3667,"कठि":3668,"बुरी":3669,"सीटें":3670,"पुस्तक":3671,"बीआई":3672,"राजस्व":3673,"लड़कियों":3674,"ब्ला":3675,"खल":3676,"जुट":3677,"मुकाबला":3678,"फर्जी":3679,"बंग":3680,"रात्रि":3681,"प्रसिद्ध":3682,"लड़ाई":3683,"वहाँ":3684,"न्यायाधीश":3685,"छोटा":3686,"कंप्यूटर":3687,"भरे":3688,"दाखिल":3689,"अंजाम":3690,"कुर्":3691,"र्डर":3692,"इनका":3693,"ट्रिक":3694,"शिक्षकों":3695,"जीता":3696,"शिवि":3697,"हुये":3698,"णु":3699,"सीन":3700,"प्रदूषण":3701,"बौ":3702,"पड़ा":3703,"सीजन":3704,"कालेज":3705,"दिक्":3706,"मशहूर":3707,"अहमद":3708,"सुल":3709,"सेल्":3710,"महे":3711,"बचाव":3712,"पिका":3713,"सकेंगे":3714,"अयो":3715,"रीय":3716,"फरार":3717,"लुक":3718,"लगते":3719,"चेतावनी":3720,"अम्":3721,"काय":3722,"निर":3723,"बदमाश":3724,"इस्तीफा":3725,"क्रांति":3726,"नेपाल":3727,"ताजा":3728,"अटल":3729,"संरक्षण":3730,"ईश्वर":3731,"कैमरा":3732,"असम":3733,"समाजवा":3734,"आधिकार":3735,"स्ना":3736,"शाखा":3737,"सर्वो":3738,"पुष्टि":3739,"वितरण":3740,"स्र":3741,"पाते":3742,"मारा":3743,"निए":3744,"विद्युत":3745,"बताने":3746,"राइ":3747,"ब्रिटेन":3748,"दुख":3749,"युवती":3750,"दौरा":3751,"तिमाही":3752,"प्रोजेक्ट":3753,"पिल":3754,"घूम":3755,"टक्कर":3756,"ौती":3757,"ड्डी":3758,"लीटर":3759,"चेन्नई":3760,"सपना":3761,"ष्ट्रीय":3762,"खारिज":3763,"कंपनियां":3764,"टूट":3765,"लगाते":3766,"मचा":3767,"तापमान":3768,"स्टेडियम":3769,"करण्यात":3770,"घि":3771,"ैर":3772,"देन":3773,"मार्केट":3774,"नीला":3775,"किशोर":3776,"आधिकारिक":3777,"मानसिक":3778,"अयोध्या":3779,"दावे":3780,"ठो":3781,"बुल":3782,"आत्मह":3783,"डिजि":3784,"उठाने":3785,"पेपर":3786,"कूल":3787,"पिंग":3788,"हिरासत":3789,"समाजवादी":3790,"बीमा":3791,"अल्":3792,"्राष्ट्रीय":3793,"जस्टिस":3794,"दश":3795,"लाइफ":3796,"अरुण":3797,"गर्म":3798,"आशी":3799,"परिवहन":3800,"थु":3801,"टिल":3802,"बढ़ती":3803,"परिस्थिति":3804,"मुख्यालय":3805,"सुरेश":3806,"ओम":3807,"नोटबंदी":3808,"स्तरीय":3809,"वास्तविक":3810,"दाई":3811,"फ़ा":3812,"प्राकृतिक":3813,"उद्घाटन":3814,"क्ल":3815,"तहसील":3816,"आधुनिक":3817,"फान":3818,"भूषण":3819,"थोड़ा":3820,"पेंशन":3821,"सोनिया":3822,"सऊ":3823,"सुझाव":3824,"लील":3825,"अमरीका":3826,"पढ़ाई":3827,"आला":3828,"निधन":3829,"यस":3830,"स्टिक":3831,"त्वचा":3832,"ऩे":3833,"बदले":3834,"दायर":3835,"इंडस्ट्री":3836,"आत्महत्या":3837,"बदलने":3838,"पंजी":3839,"लीग":3840,"मूर्ति":3841,"बिनेट":3842,"निकाला":3843,"दर्शकों":3844,"नामक":3845,"आराम":3846,"बैक":3847,"प्रोफे":3848,"मजा":3849,"राज्यसभा":3850,"रकम":3851,"परीक्षण":3852,"क़ा":3853,"पड़े":3854,"मोर्चा":3855,"धर्":3856,"खेती":3857,"हीन":3858,"ज़ी":3859,"बां":3860,"बलों":3861,"ब्ल्यू":3862,"एक्ट्रेस":3863,"पर्यटन":3864,"सड़कों":3865,"चिकित्सक":3866,"पर्याप्त":3867,"विरुद्ध":3868,"कैप्":3869,"क्ताओं":3870,"तकनीकी":3871,"टाटा":3872,"अकाउंट":3873,"कार्यकाल":3874,"क्वि":3875,"विज्ञापन":3876,"निस्तान":3877,"कमि":3878,"मजबूर":3879,"निर्भर":3880,"वैज्ञानिक":3881,"लोनी":3882,"सफर":3883,"जानी":3884,"विधे":3885,"फोट":3886,"खबरें":3887,"अधीक्षक":3888,"खत":3889,"सांग":3890,"इमरान":3891,"उर्":3892,"वाइ":3893,"ृत":3894,"क्यो":3895,"ुमान":3896,"चीज":3897,"लोकतंत्र":3898,"पुनर्":3899,"वजन":3900,"आतंकियों":3901,"पूंजी":3902,"एसोसिएशन":3903,"बच्चा":3904,"व्रत":3905,"विश्ले":3906,"संपाद":3907,"ल्ट":3908,"गले":3909,"होंगी":3910,"खरीदने":3911,"सदन":3912,"महीनों":3913,"उल्लेखनीय":3914,"इनकार":3915,"खूबसूरत":3916,"पेज":3917,"दया":3918,"प्राथमिक":3919,"व्यापक":3920,"किनारे":3921,"स्वस्थ":3922,"आजादी":3923,"तकनीक":3924,"टर्न":3925,"सौर":3926,"मारपीट":3927,"बल्लेबाजी":3928,"अफगा":3929,"बलात्कार":3930,"कहती":3931,"चम":3932,"ंडो":3933,"संख्य":3934,"जोशी":3935,"मंत्रियों":3936,"सिस":3937,"परमाण":3938,"दृश्य":3939,"ब्याज":3940,"बहस":3941,"रेशन":3942,"अपे":3943,"कपिल":3944,"सैक":3945,"कच्":3946,"सम्बन्":3947,"सिम":3948,"सिलसि":3949,"आईसी":3950,"फिया":3951,"बढ़ोतरी":3952,"एससी":3953,"ंदे":3954,"ंती":3955,"तत्काल":3956,"गार्ड":3957,"जेटली":3958,"आबादी":3959,"रुख":3960,"यात्री":3961,"आतंकवादी":3962,"सऊदी":3963,"परमाणु":3964,"त्न":3965,"कांत":3966,"आयुक्त":3967,"चोट":3968,"पड़ेगा":3969,"विद्यार्थियों":3970,"हरु":3971,"प्रशास":3972,"हक":3973,"लिखित":3974,"लोकप्रिय":3975,"पत्थर":3976,"माय":3977,"एक्ट":3978,"जापान":3979,"डब्ल्यू":3980,"ढंग":3981,"राकेश":3982,"अल्प":3983,"वेल":3984,"बाढ़":3985,"वर्षा":3986,"मुसल":3987,"चक्र":3988,"मायावती":3989,"टाइम":3990,"रमेश":3991,"हटाने":3992,"साझा":3993,"फेल":3994,"आरपी":3995,"असल्या":3996,"हंगा":3997,"मिया":3998,"लाकर":3999,"प्लेट":4000,"ष्ठा":4001,"कैबिनेट":4002,"दुर":4003,"मांगी":4004,"रेज":4005,"सिनेमा":4006,"डेंट":4007,"कांड":4008,"प्रगति":4009,"फर्":4010,"औद्योग":4011,"विस्":4012,"शियों":4013,"महत्":4014,"गूगल":4015,"ज़रू":4016,"जिंग":4017,"यौन":4018,"गों":4019,"डेटा":4020,"जितना":4021,"डांस":4022,"बढ़कर":4023,"चेक":4024,"विपक्षी":4025,"तरीका":4026,"सॉफ्ट":4027,"उल्लं":4028,"साइकिल":4029,"दिरा":4030,"स्वर्ण":4031,"लोन":4032,"मिर":4033,"गिरफ्तारी":4034,"तिर":4035,"जानने":4036,"गर्मी":4037,"प्रावधान":4038,"बॉक्स":4039,"लंड":4040,"म्भ":4041,"एप्":4042,"लंदन":4043,"मांड":4044,"प्रभु":4045,"विधेयक":4046,"जमान":4047,"ताना":4048,"आदर्श":4049,"शास्त्री":4050,"पृथ्वी":4051,"चीफ":4052,"दिलच":4053,"तथ्य":4054,"भट्":4055,"इंदौर":4056,"मुसलमानों":4057,"टाने":4058,"पब्लिक":4059,"शारी":4060,"लिंक":4061,"नस":4062,"छवि":4063,"खेला":4064,"ाराम":4065,"खबरों":4066,"कोड":4067,"आईएस":4068,"बाबू":4069,"महाराज":4070,"सूर":4071,"परन्तु":4072,"तुम्":4073,"परमेश्वर":4074,"डिजिटल":4075,"जिक्र":4076,"जबर":4077,"सांस्":4078,"गैंग":4079,"प्रॉ":4080,"सदीय":4081,"देगी":4082,"त्रीय":4083,"संसदीय":4084,"परिवारों":4085,"सर्वा":4086,"विजेता":4087,"बीसी":4088,"रिजर्":4089,"ताला":4090,"घटनाओं":4091,"ड़ों":4092,"आदित्यनाथ":4093,"मेगा":4094,"जत":4095,"एप":4096,"नौकर":4097,"गलती":4098,"बराबर":4099,"गहरा":4100,"बालों":4101,"जियो":4102,"टियां":4103,"उल्लंघन":4104,"प्रारंभ":4105,"फाइल":4106,"शहरी":4107,"अधिनियम":4108,"सहमति":4109,"सिन्हा":4110,"कल्":4111,"बेटा":4112,"----":4113,"आकार":4114,"टेक":4115,"खेलों":4116,"वासन":4117,"झाले":4118,"सक्षम":4119,"दिली":4120,"गाँव":4121,"अमिता":4122,"संकल्प":4123,"कौर":4124,"सनी":4125,"ज़ार":4126,"लव":4127,"शुद्ध":4128,"नरेन्द्र":4129,"मधु":4130,"यूनियन":4131,"सैन्य":4132,"रूपये":4133,"सांस्कृतिक":4134,"इंच":4135,"निकट":4136,"जीलैंड":4137,"ढ़ी":4138,"नागरिकों":4139,"प्रतिभा":4140,"सिन":4141,"पेयी":4142,"निग":4143,"इकाई":4144,"समक्ष":4145,"प्रकरण":4146,"हस्ता":4147,"शारीरिक":4148,"भरने":4149,"टु":4150,"जंगल":4151,"उथ":4152,"फाइ":4153,"निर्माता":4154,"गोल्ड":4155,"रिटी":4156,"बताई":4157,"पूर्वक":4158,"मेज":4159,"अंतर्राष्ट्रीय":4160,"औद्योगिक":4161,"पवि":4162,"ग्रस्त":4163,"लिखी":4164,"कें":4165,"स्टोर":4166,"सीमित":4167,"सर्विस":4168,"दैनिक":4169,"दायिक":4170,"गोपाल":4171,"पश्चिमी":4172,"लिखे":4173,"सकारात्मक":4174,"अधिकां":4175,"सौंप":4176,"मुफ्त":4177,"छोड़कर":4178,"संचालन":4179,"अगली":4180,"पीड़":4181,"ब्लै":4182,"गतिविधियों":4183,"खतर":4184,"दिमाग":4185,"प्राइवेट":4186,"पंडित":4187,"कीन":4188,"कियां":4189,"निर्यात":4190,"बढ":4191,"आईआर":4192,"लुओं":4193,"निर्वाचन":4194,"ोन":4195,"आंखों":4196,"क्षर":4197,"राजे":4198,"न्यूनतम":4199,"लूम":4200,"बरी":4201,"लेता":4202,"यश":4203,"िकी":4204,"अज":4205,"स्मृ":4206,"मय":4207,"सहारा":4208,"माला":4209,"तलाक":4210,"रिकॉर्डर":4211,"नेहरू":4212,"ल्लाह":4213,"पात्र":4214,"सिविल":4215,"शिष्ट":4216,"सड़क":4217,"लंबित":4218,"म्मत":4219,"दीपिका":4220,"नैतिक":4221,"देखि":4222,"इसीलिए":4223,"सैनिक":4224,"प्रीत":4225,"प्रेर":4226,"इंट":4227,"नाइ":4228,"ूर":4229,"जिश":4230,"शिविर":4231,"इंडी":4232,"उठाए":4233,"बच्चन":4234,"ब्रांड":4235,"बाज":4236,"जीबी":4237,"पाटी":4238,"विनो":4239,"न्यूजीलैंड":4240,"प्राथमि":4241,"सलों":4242,"यांच्या":4243,"जक":4244,"सकी":4245,"मारने":4246,"अनिवार":4247,"विज":4248,"समर्":4249,"अमिताभ":4250,"घोटाले":4251,"नाय":4252,"अनिवार्य":4253,"मेट्रो":4254,"प्रमो":4255,"ष्णु":4256,"सुभाष":4257,"बिजनेस":4258,"जिया":4259,"डिट":4260,"तां":4261,"नेटवर्क":4262,"करू":4263,"इलाहाबाद":4264,"डिजाइन":4265,"इसको":4266,"गाह":4267,"वरों":4268,"कानों":4269,"सुनाई":4270,"सोनी":4271,"निकालने":4272,"कार्या":4273,"समझौते":4274,"थोड़ी":4275,"द्वी":4276,"रवाना":4277,"सरा":4278,"दं":4279,"तीसरी":4280,"उत्पन्न":4281,"अधिकांश":4282,"फ्तार":4283,"वारदा":4284,"संदर्भ":4285,"आरोपों":4286,"रिजर्व":4287,"बनाये":4288,"लता":4289,"दत्त":4290,"हाइ":4291,"बुद्धि":4292,"बढ़ने":4293,"जाल":4294,"व्यवसाय":4295,"डिस्":4296,"मस्जिद":4297,"रियर":4298,"उत्पादों":4299,"ठिका":4300,"मुहैया":4301,"राजकीय":4302,"संस्करण":4303,"प्रकृति":4304,"पुणे":4305,"शेर":4306,"कौशल":4307,"घाटी":4308,"पद्":4309,"औसत":4310,"छात्राओं":4311,",.":4312,"अकेले":4313,"लिन":4314,"रावत":4315,"फिक":4316,"पड":4317,"सख्त":4318,"ंखला":4319,"ूक":4320,"पत्रिका":4321,"केन्द":4322,"दौड़":4323,"नागरिकता":4324,"नायक":4325,"चीजों":4326,"कटौती":4327,"आजकल":4328,"तमिलना":4329,"गेंदबाज":4330,"न्व":4331,"ट्टर":4332,"चूत":4333,"भोज":4334,"धारी":4335,"भौ":4336,"बॉल":4337,"टीन":4338,"बढ़त":4339,"मणि":4340,"आएगा":4341,"ज़्यादा":4342,"कायम":4343,"क्षेत्रीय":4344,"ओपन":4345,"मिट्टी":4346,"धन्य":4347,"चैन":4348,"सर्वश्रेष्ठ":4349,"लेंस":4350,"विंग":4351,"जगहों":4352,"अतिथि":4353,"ढ़े":4354,"त्सा":4355,"बरे":4356,"घ्र":4357,"रोध":4358,"अर्जुन":4359,"मों":4360,"जानिए":4361,"अर्था":4362,"वृत्ति":4363,"दाद":4364,"पिछली":4365,"लायंस":4366,"कपड़े":4367,"नजदी":4368,"स्थिर":4369,"हिन्दु":4370,"पवित्र":4371,"इधर":4372,"प्रशं":4373,"निकले":4374,"शैली":4375,"युग":4376,"कब्जा":4377,"झटका":4378,"लिप":4379,"बनकर":4380,"नें":4381,"शिवराज":4382,"यूनिट":4383,"चौथे":4384,"कलेक्टर":4385,"गिरी":4386,"वादा":4387,"बैठा":4388,"पुरुषों":4389,"पड़ो":4390,"इंस":4391,"फिल्में":4392,"चालू":4393,"ंजन":4394,"उपायुक्त":4395,"एनएस":4396,"सृ":4397,"मास्टर":4398,"यानि":4399,"षेक":4400,"चैंपियन":4401,"गुरू":4402,"जहा":4403,"मेन":4404,"धोखा":4405,"सेहत":4406,"तिन":4407,"मुकदमा":4408,"हनुमान":4409,"कन्या":4410,"पों":4411,"प्रोड":4412,"महंगाई":4413,"जरुर":4414,"हिस्सेदारी":4415,"कर्ताओं":4416,"महेंद्र":4417,"विनोद":4418,"कल्पना":4419,"हिता":4420,"लिश":4421,"डायरेक्टर":4422,"स्मृति":4423,"आधा":4424,"रेड":4425,"निकलने":4426,"इंटरव्यू":4427,"फांसी":4428,"तमिलनाडु":4429,"इस्लाम":4430,"ेंगी":4431,"बुक":4432,"ब्लॉक":4433,"द्वितीय":4434,"धाम":4435,"शास्त्र":4436,"बेचने":4437,"अक":4438,"केन्द्रीय":4439,"बतौर":4440,"चढ़ा":4441,"शीघ्र":4442,"आएंगे":4443,"हड़ताल":4444,"जज":4445,"समझने":4446,"साइड":4447,"अंतरि":4448,"शियल":4449,"लाइस":4450,"मनोर":4451,"स्थायी":4452,"फ्रेंड":4453,"महो":4454,"कुलदीप":4455,"दिक्कत":4456,"सैनिकों":4457,"व्यक्तिगत":4458,"मर्श":4459,"बुलाया":4460,"राणा":4461,"शाहरु":4462,"ईमान":4463,"टाइम्स":4464,"सिफार":4465,"वट":4466,"प्रोग":4467,"मद्":4468,"गोवा":4469,"कारोबारी":4470,"मुकेश":4471,"बुनिया":4472,"सूत्र":4473,"हस्त":4474,"पहुंचाने":4475,"वड":4476,"सरो":4477,"हेड":4478,".,":4479,"फार्म":4480,"सुनने":4481,"अफगानिस्तान":4482,"देखे":4483,"मुलायम":4484,"दिग्गज":4485,"वाया":4486,"रोमा":4487,"ऑपरेशन":4488,"ऊंचा":4489,"पवन":4490,"चुप":4491,"दीवार":4492,"भोग":4493,"काया":4494,"दिनेश":4495,"हेल्":4496,"श्रृ":4497,"पृष्ठ":4498,"त्ते":4499}